const unsigned char model[] = {
  0x1c, 0x00, 0x00, 0x00, 0x54, 0x46, 0x4c, 0x33, 0x14, 0x00, 0x20, 0x00,
  0x1c, 0x00, 0x18, 0x00, 0x14, 0x00, 0x10, 0x00, 0x0c, 0x00, 0x00, 0x00,
  0x08, 0x00, 0x04, 0x00, 0x14, 0x00, 0x00, 0x00, 0x1c, 0x00, 0x00, 0x00,
  0x98, 0x00, 0x00, 0x00, 0xf0, 0x00, 0x00, 0x00, 0x3c, 0x13, 0x00, 0x00,
  0x4c, 0x13, 0x00, 0x00, 0xa8, 0x18, 0x00, 0x00, 0x03, 0x00, 0x00, 0x00,
  0x01, 0x00, 0x00, 0x00, 0x10, 0x00, 0x00, 0x00, 0x00, 0x00, 0x0a, 0x00,
  0x10, 0x00, 0x0c, 0x00, 0x08, 0x00, 0x04, 0x00, 0x0a, 0x00, 0x00, 0x00,
  0x0c, 0x00, 0x00, 0x00, 0x1c, 0x00, 0x00, 0x00, 0x3c, 0x00, 0x00, 0x00,
  0x0f, 0x00, 0x00, 0x00, 0x73, 0x65, 0x72, 0x76, 0x69, 0x6e, 0x67, 0x5f,
  0x64, 0x65, 0x66, 0x61, 0x75, 0x6c, 0x74, 0x00, 0x01, 0x00, 0x00, 0x00,
  0x04, 0x00, 0x00, 0x00, 0x90, 0xff, 0xff, 0xff, 0x0a, 0x00, 0x00, 0x00,
  0x04, 0x00, 0x00, 0x00, 0x08, 0x00, 0x00, 0x00, 0x6f, 0x75, 0x74, 0x70,
  0x75, 0x74, 0x5f, 0x30, 0x00, 0x00, 0x00, 0x00, 0x01, 0x00, 0x00, 0x00,
  0x04, 0x00, 0x00, 0x00, 0xaa, 0xec, 0xff, 0xff, 0x04, 0x00, 0x00, 0x00,
  0x0c, 0x00, 0x00, 0x00, 0x6b, 0x65, 0x72, 0x61, 0x73, 0x5f, 0x74, 0x65,
  0x6e, 0x73, 0x6f, 0x72, 0x00, 0x00, 0x00, 0x00, 0x02, 0x00, 0x00, 0x00,
  0x34, 0x00, 0x00, 0x00, 0x04, 0x00, 0x00, 0x00, 0xdc, 0xff, 0xff, 0xff,
  0x0d, 0x00, 0x00, 0x00, 0x04, 0x00, 0x00, 0x00, 0x13, 0x00, 0x00, 0x00,
  0x43, 0x4f, 0x4e, 0x56, 0x45, 0x52, 0x53, 0x49, 0x4f, 0x4e, 0x5f, 0x4d,
  0x45, 0x54, 0x41, 0x44, 0x41, 0x54, 0x41, 0x00, 0x08, 0x00, 0x0c, 0x00,
  0x08, 0x00, 0x04, 0x00, 0x08, 0x00, 0x00, 0x00, 0x0c, 0x00, 0x00, 0x00,
  0x04, 0x00, 0x00, 0x00, 0x13, 0x00, 0x00, 0x00, 0x6d, 0x69, 0x6e, 0x5f,
  0x72, 0x75, 0x6e, 0x74, 0x69, 0x6d, 0x65, 0x5f, 0x76, 0x65, 0x72, 0x73,
  0x69, 0x6f, 0x6e, 0x00, 0x0e, 0x00, 0x00, 0x00, 0x48, 0x12, 0x00, 0x00,
  0x40, 0x12, 0x00, 0x00, 0x40, 0x11, 0x00, 0x00, 0x28, 0x0a, 0x00, 0x00,
  0x08, 0x0a, 0x00, 0x00, 0xbc, 0x09, 0x00, 0x00, 0x34, 0x09, 0x00, 0x00,
  0xb4, 0x00, 0x00, 0x00, 0xac, 0x00, 0x00, 0x00, 0xa4, 0x00, 0x00, 0x00,
  0x9c, 0x00, 0x00, 0x00, 0x94, 0x00, 0x00, 0x00, 0x74, 0x00, 0x00, 0x00,
  0x04, 0x00, 0x00, 0x00, 0x5e, 0xed, 0xff, 0xff, 0x04, 0x00, 0x00, 0x00,
  0x60, 0x00, 0x00, 0x00, 0x10, 0x00, 0x00, 0x00, 0x00, 0x00, 0x00, 0x00,
  0x08, 0x00, 0x0e, 0x00, 0x08, 0x00, 0x04, 0x00, 0x08, 0x00, 0x00, 0x00,
  0x10, 0x00, 0x00, 0x00, 0x24, 0x00, 0x00, 0x00, 0x00, 0x00, 0x06, 0x00,
  0x08, 0x00, 0x04, 0x00, 0x06, 0x00, 0x00, 0x00, 0x04, 0x00, 0x00, 0x00,
  0x00, 0x00, 0x00, 0x00, 0x0c, 0x00, 0x18, 0x00, 0x14, 0x00, 0x10, 0x00,
  0x0c, 0x00, 0x04, 0x00, 0x0c, 0x00, 0x00, 0x00, 0xb2, 0x9f, 0xef, 0xf0,
  0x08, 0xe7, 0xc8, 0xe9, 0x02, 0x00, 0x00, 0x00, 0x02, 0x00, 0x00, 0x00,
  0x04, 0x00, 0x00, 0x00, 0x06, 0x00, 0x00, 0x00, 0x32, 0x2e, 0x31, 0x39,
  0x2e, 0x30, 0x00, 0x00, 0xca, 0xed, 0xff, 0xff, 0x04, 0x00, 0x00, 0x00,
  0x10, 0x00, 0x00, 0x00, 0x31, 0x2e, 0x35, 0x2e, 0x30, 0x00, 0x00, 0x00,
  0x00, 0x00, 0x00, 0x00, 0x00, 0x00, 0x00, 0x00, 0x38, 0xe9, 0xff, 0xff,
  0x3c, 0xe9, 0xff, 0xff, 0x40, 0xe9, 0xff, 0xff, 0x44, 0xe9, 0xff, 0xff,
  0xf6, 0xed, 0xff, 0xff, 0x04, 0x00, 0x00, 0x00, 0x70, 0x08, 0x00, 0x00,
  0xab, 0x63, 0x2a, 0x3f, 0xa6, 0x31, 0xa7, 0x3f, 0x44, 0xa8, 0xac, 0x3f,
  0x3a, 0xa2, 0x7d, 0x3f, 0x70, 0xcf, 0x07, 0x3f, 0x60, 0x60, 0x75, 0x3f,
  0x59, 0xdc, 0x26, 0x3f, 0x33, 0xfa, 0xa4, 0xbd, 0xfa, 0x4c, 0x0f, 0x3f,
  0xf4, 0x1c, 0x2f, 0x40, 0x03, 0xf1, 0x1d, 0x3f, 0xed, 0x15, 0x7d, 0x3f,
  0x0b, 0xea, 0x0b, 0x40, 0x53, 0x4f, 0x3e, 0x3f, 0xdf, 0x33, 0x27, 0x3f,
  0x89, 0x02, 0x18, 0xbe, 0x66, 0xfd, 0x1f, 0x3f, 0x31, 0x5b, 0x38, 0x3f,
  0x9c, 0xe4, 0xe6, 0x3c, 0x69, 0xa7, 0x39, 0xbe, 0x6e, 0x1d, 0x6d, 0x3e,
  0x8b, 0xbf, 0x3d, 0x3e, 0x2e, 0x42, 0xaf, 0x3c, 0x07, 0xff, 0x63, 0x3e,
  0xcc, 0x18, 0xc5, 0x3a, 0xdf, 0x45, 0x9c, 0xbe, 0x24, 0x06, 0xc7, 0xbb,
  0xc3, 0x5b, 0xe9, 0x3d, 0xc1, 0xdf, 0xf6, 0xbd, 0xee, 0x4a, 0x99, 0xbe,
  0xb8, 0xed, 0x35, 0x3e, 0xa8, 0x2b, 0x67, 0x3e, 0x5f, 0x45, 0x22, 0x3d,
  0x12, 0x93, 0xaf, 0xbe, 0x8e, 0x4d, 0xc8, 0x3d, 0x8f, 0xfe, 0xbc, 0xbd,
  0x9a, 0x50, 0x8b, 0xbd, 0xda, 0x85, 0xff, 0xbe, 0x78, 0xef, 0xab, 0xbe,
  0xf4, 0x64, 0x95, 0x3f, 0x4b, 0x5d, 0x72, 0x3e, 0x3f, 0xa5, 0x99, 0xbe,
  0x1d, 0xd8, 0x2c, 0xbf, 0xa1, 0x84, 0x3f, 0x3d, 0x0c, 0xe4, 0x19, 0x3e,
  0x5d, 0xda, 0xb8, 0xbd, 0xc8, 0x2e, 0xfd, 0x3d, 0x5d, 0xdb, 0xa3, 0xbe,
  0x73, 0x2b, 0xa8, 0xbf, 0x9b, 0x33, 0xd0, 0x3e, 0xff, 0x59, 0x96, 0xbe,
  0xac, 0x9b, 0xae, 0x3f, 0xa4, 0xc0, 0x5d, 0x3e, 0x45, 0xfb, 0x99, 0xbe,
  0xe7, 0xcf, 0xd6, 0x3d, 0x87, 0xb2, 0x1e, 0xbe, 0x6a, 0x96, 0xe1, 0x3d,
  0x04, 0x47, 0x1e, 0xbf, 0xba, 0xaf, 0x2f, 0x3e, 0x49, 0xc1, 0x8c, 0xbe,
  0x87, 0x8a, 0x18, 0x3f, 0x5b, 0x19, 0x0e, 0x3f, 0x56, 0x64, 0xd4, 0xbe,
  0xbb, 0xa6, 0x90, 0xbf, 0xc2, 0xa1, 0xc5, 0x3e, 0xb7, 0x3e, 0xda, 0x3e,
  0xdd, 0x37, 0x12, 0xbf, 0xa5, 0x58, 0xd6, 0x3e, 0x03, 0xf3, 0x5b, 0x3f,
  0xb9, 0x1a, 0x5a, 0xbf, 0x4b, 0xdf, 0x67, 0xbd, 0x82, 0x61, 0x09, 0x3e,
  0x6f, 0x07, 0xda, 0x3e, 0x82, 0xcc, 0x76, 0xbd, 0xdb, 0xbe, 0x64, 0x3e,
  0x8d, 0x6a, 0x89, 0x3f, 0x1c, 0xaf, 0xe8, 0x3e, 0x51, 0x62, 0x87, 0xbe,
  0x2c, 0xdc, 0x19, 0xbf, 0x4e, 0x5c, 0x93, 0x3e, 0x1d, 0x17, 0xcc, 0x3e,
  0x12, 0x08, 0x2a, 0x3f, 0xf0, 0x7c, 0x0a, 0x3f, 0x71, 0xab, 0xc6, 0x3d,
  0x9c, 0x08, 0xbd, 0xbe, 0x0c, 0xb9, 0xcc, 0x3d, 0x09, 0x9a, 0xc4, 0x3d,
  0xcd, 0xcd, 0xce, 0x3f, 0x65, 0x6a, 0x84, 0x3e, 0x3b, 0xa3, 0x9c, 0xbe,
  0xff, 0xba, 0xa2, 0x3f, 0x93, 0xd0, 0x0f, 0x3f, 0x47, 0xc4, 0x1f, 0x3e,
  0xa9, 0x5d, 0x6b, 0x3f, 0x8e, 0xe3, 0x96, 0x3e, 0xa2, 0xc5, 0x13, 0xbf,
  0x88, 0x24, 0xb9, 0xbe, 0x78, 0xed, 0x80, 0xbe, 0x47, 0xd7, 0xf3, 0x3d,
  0x65, 0xe3, 0x71, 0xbf, 0x5c, 0x64, 0xe5, 0xbc, 0xa1, 0x4f, 0x92, 0x3e,
  0x48, 0x4c, 0x0f, 0xbe, 0x91, 0x0a, 0xe9, 0xbd, 0xe1, 0xbb, 0x51, 0x3f,
  0x4c, 0x26, 0x62, 0x3f, 0xef, 0xdc, 0x56, 0xbd, 0x3f, 0x12, 0x30, 0xbe,
  0xbf, 0x5b, 0x01, 0xbf, 0xa7, 0xe4, 0xa6, 0x3d, 0x1b, 0x2a, 0x78, 0x3e,
  0xaf, 0xbb, 0x6d, 0xbf, 0xc0, 0xed, 0xcd, 0x3e, 0xd8, 0x71, 0x00, 0x3f,
  0xce, 0x6a, 0x84, 0x3f, 0x17, 0x36, 0x23, 0x3f, 0x24, 0xd5, 0xa1, 0xbe,
  0xf1, 0xb3, 0x7d, 0xbe, 0x05, 0x11, 0x46, 0xbd, 0x99, 0xc7, 0xe5, 0x3e,
  0x90, 0xc5, 0x48, 0x3f, 0x6f, 0x05, 0xc9, 0x3e, 0x27, 0x3b, 0x02, 0x3f,
  0x47, 0x17, 0xb9, 0xbf, 0x53, 0xb5, 0x43, 0x3d, 0xa7, 0x8a, 0x98, 0x3d,
  0xfb, 0xe6, 0x9d, 0xbe, 0xb0, 0xd8, 0x5c, 0xbe, 0x33, 0x7d, 0x08, 0xbd,
  0x07, 0xfa, 0x23, 0x3f, 0xad, 0x31, 0xd5, 0x3e, 0x55, 0xdb, 0x08, 0xbf,
  0xa1, 0xff, 0x15, 0xbf, 0x3e, 0x4b, 0xbf, 0x3e, 0x87, 0x87, 0x51, 0xbe,
  0xe5, 0x7f, 0xb3, 0xbf, 0xa9, 0x60, 0xd1, 0x3e, 0x8f, 0x52, 0xb7, 0xbe,
  0x59, 0x80, 0xe8, 0xbf, 0x6f, 0x17, 0x0d, 0x3e, 0x86, 0x82, 0xdc, 0x3e,
  0x9b, 0x22, 0x97, 0x3f, 0xe2, 0x5e, 0x3d, 0xbe, 0x03, 0x1e, 0xf2, 0xbd,
  0x64, 0xcf, 0x96, 0x3f, 0x71, 0xb0, 0x24, 0x3e, 0x55, 0x31, 0x0a, 0x3f,
  0x98, 0x50, 0xec, 0x3f, 0xa5, 0x97, 0xe1, 0x3d, 0xf1, 0x5d, 0x94, 0xbd,
  0x50, 0x02, 0x70, 0xbf, 0xb9, 0x65, 0x90, 0xbe, 0x41, 0x8f, 0x9d, 0x3e,
  0xcd, 0x8a, 0x9f, 0x3d, 0x3b, 0x61, 0x69, 0xbd, 0xb9, 0x60, 0x39, 0x3e,
  0x1e, 0x3d, 0x29, 0xbf, 0xe9, 0x61, 0xf9, 0x3e, 0xda, 0x5d, 0xc8, 0x3e,
  0x0d, 0xb0, 0xf7, 0x3f, 0x5d, 0xa9, 0xe3, 0x3e, 0x1b, 0xeb, 0xc4, 0xbe,
  0xe1, 0x9f, 0xd7, 0xbe, 0x1c, 0xc6, 0xc9, 0xbc, 0x1f, 0xce, 0xc8, 0x3d,
  0xc1, 0xa5, 0x92, 0xbf, 0xc1, 0x57, 0x82, 0x3e, 0x9e, 0x0a, 0xc6, 0x3e,
  0x95, 0x20, 0x92, 0x3f, 0x79, 0x76, 0x27, 0x3f, 0x4e, 0xc2, 0x49, 0x3e,
  0x3c, 0x0e, 0x98, 0xbd, 0xee, 0xa8, 0x70, 0x3e, 0xf1, 0x25, 0xcc, 0xbd,
  0xd6, 0x42, 0x73, 0x3f, 0x06, 0x01, 0x04, 0x3d, 0xbe, 0x78, 0xea, 0x3d,
  0x17, 0xef, 0xe6, 0xbf, 0x43, 0x02, 0x0e, 0x3e, 0xec, 0x1d, 0x41, 0x3e,
  0x09, 0x55, 0x3f, 0x3f, 0x64, 0xe4, 0x68, 0xbe, 0xa1, 0x21, 0x4e, 0xbf,
  0x27, 0xad, 0x7f, 0xbe, 0x3c, 0x3b, 0xd0, 0x3e, 0x7c, 0x17, 0x34, 0xbf,
  0x9c, 0x53, 0x45, 0x3e, 0x3e, 0x64, 0xf0, 0x3e, 0x8a, 0x67, 0x6b, 0xbe,
  0xfc, 0xe8, 0x1f, 0xc0, 0xb3, 0x7a, 0xbf, 0xbb, 0xd7, 0x8d, 0x92, 0x3e,
  0x40, 0xcf, 0xe2, 0xbf, 0x5c, 0xcf, 0x86, 0x3b, 0xf8, 0xaf, 0x63, 0x3f,
  0x60, 0x68, 0xb5, 0x3e, 0xd6, 0x61, 0xe9, 0x3c, 0x8d, 0xb3, 0x39, 0xbc,
  0xc2, 0x82, 0x98, 0xbe, 0x1c, 0x11, 0xb3, 0xbd, 0xb2, 0x66, 0x58, 0x3e,
  0xe8, 0x7b, 0xde, 0x3d, 0xfc, 0x10, 0xab, 0xbd, 0xa2, 0xb8, 0x00, 0x3e,
  0x00, 0xa2, 0x95, 0x3d, 0x56, 0xc0, 0x02, 0xbe, 0xb4, 0xa6, 0x86, 0xbd,
  0xd4, 0x0c, 0xb3, 0xbe, 0xc0, 0x37, 0xf9, 0x3c, 0xae, 0x0f, 0x44, 0x3e,
  0xd4, 0x97, 0xc3, 0xbd, 0xc4, 0xb7, 0x9f, 0xbe, 0x4c, 0xe1, 0xb7, 0xbd,
  0xbe, 0xd5, 0x3f, 0x3e, 0x28, 0x5b, 0x68, 0xbd, 0x9d, 0x59, 0x1a, 0xbe,
  0xd7, 0x9e, 0x15, 0x3e, 0x50, 0x6a, 0x35, 0x3e, 0xcb, 0x62, 0xef, 0xbc,
  0xf2, 0x65, 0x08, 0xbf, 0x32, 0xd6, 0xbc, 0x3c, 0xc2, 0x20, 0x1a, 0x3e,
  0xc5, 0x67, 0x30, 0x3f, 0x8d, 0xde, 0x26, 0x3f, 0x41, 0xec, 0x15, 0xbe,
  0xee, 0xa2, 0x89, 0xbf, 0x76, 0x21, 0xf4, 0x3e, 0x3d, 0x65, 0x51, 0x3f,
  0x7e, 0xa2, 0x10, 0xbe, 0x45, 0xed, 0xb4, 0x3e, 0xb3, 0x24, 0xb5, 0x3e,
  0x69, 0x11, 0xaf, 0xbe, 0x16, 0x39, 0xb3, 0x3e, 0xa5, 0x9e, 0x07, 0xbd,
  0x60, 0x67, 0x10, 0xbd, 0x70, 0xd0, 0x4e, 0xbd, 0xbd, 0xe7, 0x23, 0xbe,
  0x53, 0x06, 0x1f, 0xbe, 0x3a, 0x25, 0x6c, 0x3e, 0xbc, 0xf9, 0xec, 0x3d,
  0xb3, 0x53, 0xa9, 0xbe, 0xf8, 0xdb, 0x23, 0xbd, 0x98, 0x17, 0x55, 0x3d,
  0xa8, 0x48, 0x84, 0xbe, 0xfa, 0xf7, 0x45, 0xbe, 0x50, 0xc5, 0xba, 0x3c,
  0xb8, 0x30, 0xe8, 0x3d, 0x80, 0x1e, 0xa9, 0xbe, 0x0e, 0x57, 0x2e, 0x3e,
  0x08, 0x6a, 0xed, 0x3d, 0x01, 0x8b, 0x50, 0xbe, 0x66, 0x2b, 0x31, 0xbe,
  0xec, 0xd3, 0x8b, 0xbe, 0x57, 0xfa, 0x2e, 0x3e, 0xd5, 0x0e, 0xc3, 0x3d,
  0x8b, 0x69, 0x62, 0xbf, 0xcd, 0xb2, 0x71, 0x3e, 0xb5, 0x8a, 0x8b, 0x3e,
  0x70, 0x4a, 0xb8, 0x3f, 0x1e, 0x5b, 0x42, 0x3f, 0xbd, 0x13, 0x86, 0xbe,
  0x43, 0x07, 0x2a, 0xbf, 0x54, 0x7e, 0x62, 0x3e, 0x5a, 0xae, 0x71, 0xbd,
  0x54, 0x75, 0xd5, 0x3e, 0x4a, 0xac, 0xe6, 0x3c, 0xde, 0x41, 0xe1, 0x3e,
  0x89, 0x54, 0xaa, 0xbf, 0x84, 0xe5, 0x69, 0x3d, 0xdd, 0x4f, 0xe4, 0x3d,
  0xae, 0xe7, 0x17, 0x3e, 0x68, 0x8b, 0x5d, 0x3d, 0x1b, 0x5c, 0x04, 0x3e,
  0x0a, 0x95, 0x4d, 0xbe, 0x31, 0x49, 0xbc, 0xbe, 0xfa, 0x60, 0x06, 0xbe,
  0xfb, 0x40, 0x8a, 0xbd, 0xcc, 0x60, 0x4e, 0x3e, 0x6f, 0xb0, 0x6e, 0xbe,
  0xb3, 0x30, 0x2b, 0x3e, 0xc7, 0x7a, 0x91, 0x3e, 0xc4, 0x5a, 0x53, 0x3e,
  0x67, 0x77, 0x89, 0x3e, 0xe4, 0x50, 0x67, 0xbe, 0x11, 0xa5, 0xeb, 0xbc,
  0xaa, 0x76, 0x69, 0xbe, 0x7e, 0xfb, 0x79, 0xbe, 0x9e, 0x7a, 0x5e, 0x3e,
  0xab, 0x60, 0xed, 0xbe, 0x58, 0x42, 0x99, 0xbe, 0x79, 0x44, 0x85, 0xbe,
  0x3a, 0x48, 0xf0, 0x3e, 0xad, 0x64, 0xd5, 0x3e, 0x03, 0x31, 0x98, 0xbe,
  0x04, 0x6e, 0x2e, 0xbf, 0x23, 0x52, 0x1d, 0x3e, 0x70, 0x92, 0xa3, 0x3e,
  0x1b, 0x5c, 0xad, 0xbe, 0x7d, 0xe3, 0xbc, 0x3e, 0xb0, 0x46, 0xde, 0xbe,
  0x56, 0x98, 0x7a, 0xbf, 0xf0, 0xd2, 0xb1, 0x3e, 0x79, 0xa8, 0x17, 0xbd,
  0x67, 0x56, 0x45, 0x3f, 0xda, 0x5b, 0xe7, 0xbd, 0x74, 0x28, 0x04, 0x3e,
  0x0c, 0xd7, 0x8f, 0xbe, 0xbc, 0x9e, 0xd1, 0xbd, 0xf0, 0x23, 0x7d, 0x3d,
  0xae, 0xe8, 0xa0, 0xbe, 0x28, 0x7e, 0x3e, 0x3d, 0x9e, 0x37, 0x71, 0x3e,
  0xde, 0x09, 0x33, 0x3e, 0xe8, 0x87, 0x06, 0xbd, 0x41, 0xa8, 0x49, 0xbe,
  0x7e, 0xb5, 0x7b, 0xbe, 0xe8, 0x39, 0x94, 0x3d, 0xd4, 0x04, 0x8e, 0xbd,
  0xd0, 0xca, 0xa3, 0xbe, 0x91, 0x5d, 0xaf, 0xbe, 0xe9, 0xe8, 0x9c, 0x3e,
  0xb7, 0x5b, 0xb2, 0x3e, 0x80, 0xf4, 0x34, 0x3d, 0x00, 0xff, 0xf9, 0xbd,
  0x5a, 0x31, 0xb5, 0xbc, 0x43, 0xc8, 0xa4, 0xbe, 0xf5, 0xed, 0x45, 0xbe,
  0x74, 0x15, 0xf3, 0x3d, 0x3d, 0x54, 0x1b, 0xbc, 0xd6, 0x09, 0x7c, 0x3d,
  0x0d, 0x12, 0x5d, 0xbe, 0x58, 0xbf, 0xae, 0x39, 0x38, 0xef, 0x6a, 0x3e,
  0xd7, 0x37, 0xd9, 0x3d, 0x30, 0x02, 0xeb, 0xbd, 0xde, 0xa8, 0x36, 0x3e,
  0x58, 0xeb, 0xae, 0xbe, 0xf3, 0x14, 0x93, 0x3e, 0x6a, 0x87, 0xb2, 0x3d,
  0x16, 0x21, 0x0c, 0x3d, 0xa0, 0xbb, 0x6a, 0xbe, 0x09, 0xb4, 0x7b, 0xbe,
  0x3c, 0xce, 0xe5, 0x3e, 0x06, 0xa4, 0x0b, 0x3f, 0x65, 0xfe, 0xa4, 0x3e,
  0x79, 0x66, 0xda, 0xbe, 0xa1, 0x9c, 0xe1, 0xbe, 0x92, 0x35, 0x20, 0x3f,
  0xf1, 0xd2, 0x87, 0x3e, 0xef, 0x41, 0xce, 0x3d, 0x27, 0x3c, 0x15, 0xbe,
  0xab, 0x38, 0x40, 0x3e, 0xe7, 0xc1, 0x60, 0xbc, 0x0a, 0x9d, 0xca, 0x3e,
  0x09, 0x63, 0x8e, 0x3f, 0xbc, 0x84, 0x79, 0x3d, 0x60, 0xbf, 0x40, 0x3e,
  0xcf, 0xb3, 0x8d, 0xbf, 0x37, 0xed, 0x63, 0x3e, 0x6e, 0x74, 0x52, 0x3e,
  0x25, 0xae, 0x53, 0xbe, 0xa6, 0x83, 0x4e, 0xbe, 0x3c, 0x83, 0x09, 0xbf,
  0xc6, 0xe2, 0x3e, 0x3f, 0x5e, 0x8a, 0x8e, 0x3e, 0xe2, 0x67, 0xd0, 0xbd,
  0x5e, 0x47, 0x2a, 0xbf, 0x15, 0x9b, 0x7c, 0x3e, 0x2d, 0x5c, 0xd6, 0x3e,
  0x96, 0x52, 0x38, 0xbe, 0xa4, 0xfa, 0x02, 0xbe, 0xad, 0x60, 0xef, 0xbe,
  0x41, 0xaa, 0x82, 0xbf, 0x84, 0xbb, 0xda, 0x3d, 0x2a, 0x7f, 0x58, 0xbe,
  0xbb, 0x16, 0xb4, 0x3f, 0x7c, 0x86, 0x5f, 0x3e, 0x3a, 0x4a, 0x85, 0xbe,
  0x4c, 0xb7, 0xd3, 0x3d, 0x2f, 0x3d, 0x87, 0xbe, 0x18, 0x30, 0x05, 0x3e,
  0x1e, 0xc7, 0xdb, 0xbd, 0x86, 0x5d, 0x54, 0x3e, 0x7e, 0xdc, 0x61, 0x3e,
  0x44, 0x5e, 0xd7, 0x3d, 0xd0, 0xb0, 0x3f, 0xbe, 0x9e, 0x52, 0x3b, 0x3e,
  0x1b, 0xef, 0x84, 0xbe, 0xbc, 0xd7, 0xa4, 0xbd, 0x20, 0x0b, 0x57, 0x3c,
  0x80, 0xf3, 0x08, 0x3d, 0x0f, 0xb0, 0x93, 0xbe, 0x22, 0x30, 0x27, 0xbe,
  0x95, 0x97, 0xa9, 0x3e, 0x46, 0x9a, 0x9b, 0xbe, 0x10, 0xea, 0xcf, 0x3c,
  0x1c, 0xea, 0xc8, 0x3d, 0xc6, 0xab, 0x33, 0x3e, 0xaa, 0x99, 0x4e, 0xbe,
  0x3e, 0x4f, 0x7f, 0x3e, 0x84, 0x75, 0xac, 0xbe, 0xdb, 0xee, 0x1a, 0xbe,
  0x9b, 0x5d, 0x97, 0xbe, 0x8c, 0xb3, 0x66, 0xbe, 0x4c, 0xee, 0x91, 0xbe,
  0x5e, 0x03, 0x5a, 0x3e, 0xf5, 0xab, 0x07, 0xbe, 0x19, 0x38, 0x81, 0x3e,
  0x1a, 0x62, 0x26, 0xbe, 0xb0, 0xd6, 0xa0, 0xbd, 0x2d, 0x5c, 0x96, 0x3e,
  0xc8, 0x51, 0xaa, 0xbe, 0x50, 0xb2, 0xd9, 0x3d, 0xc0, 0x3b, 0x38, 0xbd,
  0xb6, 0xde, 0x68, 0xbe, 0xd9, 0xa3, 0x4b, 0xbe, 0x6d, 0xd1, 0x5b, 0x3b,
  0xd4, 0xe2, 0x8e, 0x3e, 0x40, 0xd4, 0x7c, 0x3e, 0xda, 0x3c, 0x31, 0x3d,
  0x25, 0xec, 0x41, 0x3f, 0x5f, 0x08, 0x51, 0x3f, 0x66, 0x01, 0x21, 0x3f,
  0xd3, 0xca, 0x91, 0xbe, 0x99, 0xec, 0x95, 0x3e, 0xb9, 0x4c, 0x54, 0xbe,
  0x4f, 0xc8, 0x4d, 0xbf, 0x93, 0x36, 0x21, 0x3f, 0x8f, 0x67, 0x8f, 0x3e,
  0x59, 0x63, 0x8d, 0x3d, 0x48, 0x1f, 0xcf, 0x3e, 0x0f, 0x07, 0xca, 0x3e,
  0x41, 0xd0, 0x0a, 0x3f, 0xdb, 0xec, 0x4a, 0xbc, 0xa5, 0xa3, 0x0e, 0x3f,
  0xa8, 0xcd, 0xae, 0xbe, 0xf1, 0x32, 0x8a, 0xbe, 0x03, 0x29, 0x5f, 0xbd,
  0xde, 0xdc, 0xa6, 0x3e, 0x62, 0xbe, 0xfc, 0xbd, 0x9f, 0xdc, 0x1e, 0xbe,
  0x03, 0x56, 0x36, 0x3d, 0x45, 0xa3, 0x32, 0x3e, 0x7d, 0xdf, 0x27, 0x3f,
  0x03, 0x16, 0x68, 0x3f, 0x00, 0x01, 0x8e, 0xbd, 0xc9, 0x5f, 0xd2, 0x3d,
  0xef, 0xbb, 0x7c, 0xbf, 0x50, 0xfd, 0xd4, 0x3d, 0x29, 0xa7, 0xf9, 0x3e,
  0x6c, 0x3e, 0x16, 0x3f, 0x88, 0xcb, 0x57, 0x3f, 0xfb, 0x46, 0x13, 0x3f,
  0xcc, 0x7a, 0xbc, 0x3f, 0x1d, 0x04, 0x3a, 0xbd, 0x0a, 0x4d, 0xaf, 0x3d,
  0x9f, 0x93, 0x71, 0xbf, 0xbb, 0xad, 0xaa, 0xbe, 0xae, 0x0b, 0x63, 0x3e,
  0x6d, 0x18, 0xe5, 0x3f, 0x72, 0x90, 0x54, 0x3e, 0x79, 0x07, 0x1c, 0x3e,
  0xd6, 0x49, 0xf8, 0x3f, 0xeb, 0x5e, 0x4e, 0x3d, 0x84, 0xf2, 0x95, 0x3e,
  0xd7, 0x67, 0x8f, 0x3f, 0x41, 0x83, 0xb2, 0x3e, 0x0f, 0x8e, 0xa0, 0xbd,
  0xca, 0xe8, 0x28, 0xbd, 0x69, 0xf9, 0x22, 0xbe, 0xf8, 0x9f, 0xbc, 0xbe,
  0x32, 0x47, 0x98, 0x3f, 0x46, 0x70, 0xfa, 0x3e, 0xb3, 0x75, 0xbc, 0xbe,
  0x95, 0x37, 0xf9, 0xbe, 0x81, 0x85, 0x1e, 0xbe, 0xe5, 0x45, 0x7f, 0x3e,
  0x96, 0x83, 0xf2, 0xbe, 0xd6, 0x1f, 0xf1, 0x3c, 0x11, 0xd7, 0xc1, 0xbe,
  0x3f, 0x8c, 0x8a, 0xbf, 0x2e, 0xb2, 0x12, 0x3e, 0xc1, 0x2b, 0x00, 0xbe,
  0x6f, 0x97, 0x8a, 0x3f, 0x17, 0x0d, 0xb9, 0x3d, 0x8c, 0xa1, 0xd8, 0x3d,
  0x2b, 0xf7, 0xa2, 0x3e, 0x9f, 0x15, 0xd4, 0x3e, 0xef, 0x7f, 0xc4, 0xbe,
  0xc1, 0xf8, 0xa8, 0xbe, 0x2d, 0x77, 0x81, 0x3e, 0xa5, 0xa4, 0x19, 0xbf,
  0x64, 0xc0, 0x19, 0x3f, 0xb4, 0x98, 0x27, 0x3f, 0x98, 0x0b, 0xac, 0x3c,
  0xbd, 0xb1, 0xc3, 0xbf, 0x62, 0x96, 0x0b, 0xbe, 0x42, 0x2d, 0xa9, 0x3e,
  0xab, 0xb2, 0xe6, 0xbe, 0x6c, 0xb8, 0x09, 0xbe, 0xd9, 0xc3, 0x53, 0x3f,
  0x3f, 0xa3, 0x98, 0xbe, 0x98, 0xe0, 0x53, 0xbd, 0xf3, 0x77, 0xb2, 0xbd,
  0xac, 0xc5, 0x37, 0xbf, 0x54, 0x25, 0x9b, 0xbe, 0xe8, 0x1a, 0x9a, 0xbe,
  0xda, 0x5f, 0x28, 0xbe, 0xb3, 0xab, 0x1d, 0x3f, 0xa5, 0xec, 0xa6, 0x3e,
  0x97, 0x8d, 0xda, 0x3e, 0x5a, 0xca, 0xd5, 0x3e, 0x67, 0xf2, 0xa0, 0x3e,
  0x37, 0x4a, 0x88, 0x3e, 0x3a, 0x8f, 0xd3, 0x3e, 0xf6, 0x0b, 0x45, 0x3d,
  0xe3, 0x43, 0x80, 0xbf, 0x61, 0x4a, 0x1d, 0x3e, 0xeb, 0x68, 0x1e, 0x3d,
  0xd7, 0x93, 0x1f, 0x3f, 0x7f, 0xa3, 0x0d, 0x3f, 0xff, 0x5b, 0x07, 0x3e,
  0x24, 0x57, 0x26, 0xbe, 0xcc, 0x79, 0x9e, 0xbe, 0x23, 0xe0, 0xb4, 0x3e,
  0xf3, 0xe9, 0x66, 0xbe, 0x0a, 0xf2, 0x40, 0xbe, 0x1b, 0x04, 0x4b, 0xbe,
  0xda, 0x8f, 0x49, 0x3e, 0xc0, 0x53, 0x93, 0xbd, 0x4c, 0x84, 0x8a, 0xbd,
  0x96, 0xf9, 0x56, 0x3e, 0x38, 0x47, 0xe6, 0x3d, 0x4c, 0xc3, 0xa8, 0xbe,
  0x3a, 0x5c, 0x39, 0x3e, 0x71, 0xe4, 0x39, 0xbe, 0xaa, 0xd6, 0x5d, 0x3e,
  0x6a, 0x92, 0x07, 0x3e, 0x06, 0x18, 0x3d, 0x3e, 0xb5, 0x46, 0xb2, 0x3e,
  0x72, 0xf6, 0xff, 0xff, 0x04, 0x00, 0x00, 0x00, 0x78, 0x00, 0x00, 0x00,
  0x33, 0x8b, 0x25, 0x3f, 0x09, 0xfd, 0x08, 0xbd, 0xfb, 0xbe, 0x5e, 0x3d,
  0x40, 0xde, 0x29, 0x3e, 0xa8, 0x37, 0x55, 0x3e, 0x35, 0x25, 0x71, 0xbd,
  0xc4, 0xe2, 0x30, 0x3e, 0x05, 0x4b, 0xf6, 0x3d, 0x83, 0xb2, 0x13, 0x3e,
  0xe2, 0xc2, 0x14, 0x3e, 0xd0, 0xa8, 0xed, 0x3d, 0x00, 0x00, 0x00, 0x00,
  0xfb, 0x10, 0x2d, 0x3e, 0x00, 0x00, 0x00, 0x00, 0x58, 0x36, 0x3d, 0x3e,
  0x02, 0xfe, 0x74, 0xbc, 0x33, 0xa3, 0x94, 0x3d, 0x00, 0x00, 0x00, 0x00,
  0x8c, 0x85, 0xe1, 0xbc, 0xd9, 0xee, 0x5c, 0xbd, 0xa5, 0x96, 0x07, 0x3d,
  0x00, 0x00, 0x00, 0x00, 0x00, 0x00, 0x00, 0x00, 0x22, 0x6f, 0x97, 0x3e,
  0x23, 0x37, 0x18, 0xbd, 0x6c, 0x13, 0xeb, 0x3d, 0x5c, 0xf4, 0x86, 0x3d,
  0x33, 0x38, 0xd3, 0x3d, 0xca, 0x9d, 0xbb, 0x3e, 0x00, 0x00, 0x00, 0x00,
  0xf6, 0xf6, 0xff, 0xff, 0x04, 0x00, 0x00, 0x00, 0x3c, 0x00, 0x00, 0x00,
  0xa3, 0x59, 0x62, 0x3c, 0x00, 0x00, 0x00, 0x00, 0xa4, 0x7f, 0x52, 0x3e,
  0xb5, 0xd9, 0xd6, 0x3c, 0xdb, 0xe9, 0x17, 0x3e, 0xc9, 0x35, 0x42, 0x3e,
  0x90, 0x18, 0xbb, 0x3d, 0x5a, 0x07, 0x91, 0xbc, 0x00, 0x00, 0x00, 0x00,
  0x0d, 0x76, 0x9f, 0x3d, 0x00, 0x00, 0x00, 0x00, 0xf2, 0x7a, 0x0b, 0x3e,
  0x68, 0x51, 0x1b, 0x3c, 0x74, 0x2a, 0x03, 0x3d, 0x94, 0x56, 0x24, 0x3e,
  0x3e, 0xf7, 0xff, 0xff, 0x04, 0x00, 0x00, 0x00, 0x10, 0x00, 0x00, 0x00,
  0x8d, 0x1a, 0xfb, 0xbd, 0xd4, 0x19, 0x33, 0xbf, 0x79, 0x92, 0xb1, 0x3c,
  0xa8, 0x0d, 0x36, 0xbd, 0x5a, 0xf7, 0xff, 0xff, 0x04, 0x00, 0x00, 0x00,
  0x08, 0x07, 0x00, 0x00, 0xbb, 0xe6, 0x28, 0xbf, 0xa9, 0x55, 0xed, 0x3d,
  0xfc, 0x3b, 0x2c, 0x3f, 0x9d, 0x61, 0xec, 0x3e, 0x18, 0x31, 0xaa, 0x3d,
  0x9e, 0xa0, 0x83, 0xbe, 0x8c, 0x83, 0xc1, 0x3e, 0x6e, 0xdf, 0xab, 0x3f,
  0xc0, 0xdf, 0xe2, 0x3a, 0xc8, 0x55, 0xd3, 0x3e, 0x32, 0x92, 0xdf, 0x3f,
  0xe6, 0x03, 0xb7, 0x3e, 0xb3, 0xf8, 0x09, 0x3f, 0x28, 0xb2, 0x26, 0x3e,
  0x46, 0x4b, 0x38, 0x3f, 0x35, 0x38, 0x67, 0xbe, 0xe4, 0xf1, 0xed, 0x3e,
  0x98, 0x97, 0x29, 0x3e, 0xbe, 0xd4, 0x3f, 0x3d, 0xa3, 0xa1, 0x35, 0xbe,
  0x69, 0xc2, 0xcb, 0x3e, 0x08, 0x81, 0xd4, 0x3d, 0x08, 0x31, 0x05, 0xbe,
  0x08, 0x71, 0xac, 0x3e, 0xe4, 0x09, 0x18, 0xbf, 0xfa, 0x07, 0xa8, 0xbf,
  0x83, 0x40, 0x1e, 0x3f, 0xf3, 0x6d, 0x11, 0x3f, 0xce, 0xb8, 0xd4, 0x3e,
  0x52, 0x62, 0x91, 0x3e, 0x39, 0xac, 0x9e, 0xbe, 0x41, 0x41, 0xaf, 0xbe,
  0x2b, 0x01, 0x78, 0xbe, 0x94, 0xa5, 0x92, 0xbe, 0x1c, 0xfd, 0x8c, 0x3e,
  0xad, 0x67, 0x1d, 0xbe, 0x90, 0x05, 0xe9, 0xbd, 0x60, 0xaf, 0x67, 0x3e,
  0x40, 0x4d, 0xbf, 0x3d, 0xc0, 0x9e, 0x2d, 0xbe, 0x00, 0x42, 0xa5, 0x3b,
  0xc0, 0xf0, 0x15, 0x3c, 0xb0, 0x5e, 0x46, 0xbe, 0x00, 0xb3, 0xb1, 0xbd,
  0x0f, 0x68, 0x15, 0xbe, 0x01, 0xed, 0x49, 0xbe, 0x61, 0xd0, 0x2b, 0xbe,
  0xd2, 0x14, 0x7d, 0xbe, 0x80, 0xe6, 0x9c, 0x3d, 0xc4, 0xa4, 0x23, 0xbe,
  0xce, 0xeb, 0x88, 0x3e, 0x2b, 0x9f, 0x56, 0xbe, 0x60, 0x82, 0xdb, 0x3d,
  0x40, 0xa2, 0xfc, 0xbb, 0x60, 0x63, 0x99, 0xbd, 0x90, 0x8a, 0xc0, 0xbd,
  0x50, 0xf8, 0xb0, 0xbe, 0x90, 0xad, 0x57, 0x3e, 0x2a, 0x72, 0x89, 0xbe,
  0xe0, 0x19, 0x1d, 0xbe, 0x64, 0x43, 0xb9, 0x3e, 0xae, 0x57, 0x4b, 0xbd,
  0x40, 0xf1, 0x9e, 0x3e, 0x86, 0x45, 0x44, 0xbe, 0x8c, 0xa8, 0x07, 0x3f,
  0xaa, 0x19, 0xa0, 0x3f, 0x24, 0x00, 0x56, 0xbe, 0x7d, 0x54, 0xbf, 0x3c,
  0xa8, 0x01, 0x49, 0x3f, 0x0c, 0x99, 0xf6, 0xbe, 0x9a, 0xd7, 0x45, 0x3e,
  0xe8, 0x34, 0x24, 0xbe, 0x02, 0xd7, 0x62, 0x3c, 0x2c, 0x35, 0x6b, 0x3e,
  0xe0, 0xa9, 0x11, 0xbf, 0xe3, 0xfc, 0xad, 0x3e, 0xf9, 0xaa, 0x01, 0x3d,
  0xf1, 0xe5, 0x94, 0xbe, 0x38, 0x77, 0x79, 0xbb, 0xaa, 0x4c, 0x40, 0x3f,
  0x4b, 0xa7, 0x80, 0x3e, 0x28, 0x08, 0x61, 0x3e, 0x0d, 0xbf, 0xb3, 0xbe,
  0x38, 0xf5, 0x36, 0xbe, 0x9a, 0x31, 0x4d, 0x3f, 0x2a, 0xcd, 0x93, 0x3f,
  0xa0, 0x26, 0x58, 0x3f, 0xac, 0x98, 0xad, 0x3e, 0xb3, 0x9f, 0x63, 0xbf,
  0xb0, 0x72, 0x8f, 0xbe, 0x96, 0x8c, 0x3e, 0x3e, 0x46, 0x2e, 0x9f, 0x3e,
  0x62, 0x97, 0x0d, 0x3e, 0xf2, 0x56, 0x59, 0x3e, 0x5c, 0x5c, 0x9e, 0xbe,
  0xfb, 0xb7, 0x61, 0xbe, 0x0e, 0xf1, 0x45, 0xbe, 0x84, 0xbc, 0x65, 0x3e,
  0xb6, 0xac, 0x72, 0xbe, 0x83, 0x3b, 0x04, 0xbe, 0xb0, 0xb4, 0xfb, 0xbe,
  0x66, 0x7b, 0x49, 0xbe, 0x24, 0xd5, 0x94, 0x3e, 0x50, 0xd6, 0x18, 0x3e,
  0x96, 0x1a, 0x9b, 0xbe, 0xb3, 0x88, 0xaf, 0xbe, 0x4d, 0x14, 0xf7, 0x3d,
  0xff, 0x08, 0x5f, 0xbe, 0x03, 0x2d, 0x9d, 0xbe, 0xe5, 0xd6, 0x0f, 0xbe,
  0xf3, 0x03, 0x98, 0x3e, 0xc0, 0x75, 0xc5, 0x3b, 0x4e, 0xaa, 0x81, 0x3e,
  0xa3, 0xb8, 0xb5, 0xbd, 0x33, 0x75, 0xba, 0xbd, 0x50, 0x22, 0xd2, 0x3e,
  0xb6, 0x0c, 0x7a, 0x3e, 0xdc, 0x0a, 0x86, 0xbe, 0xb2, 0xd6, 0xfc, 0xbd,
  0x2c, 0x18, 0x7d, 0x3e, 0x73, 0x39, 0x3f, 0x3e, 0x84, 0xcd, 0x19, 0xbe,
  0x36, 0xc6, 0xd7, 0x3e, 0x60, 0x40, 0x44, 0x3e, 0x65, 0x5e, 0x0b, 0xbe,
  0xdb, 0x02, 0x25, 0xbe, 0x3b, 0x26, 0x08, 0x3f, 0x93, 0xbc, 0x0d, 0x3f,
  0xf5, 0x5d, 0x12, 0xbf, 0xd3, 0x9e, 0x32, 0x3f, 0x8a, 0xa5, 0x79, 0x3e,
  0x92, 0x5f, 0x74, 0xbe, 0x68, 0xba, 0xc0, 0xbc, 0x80, 0x61, 0xce, 0x3c,
  0xa0, 0xcb, 0xe1, 0x3e, 0x64, 0xb6, 0xfe, 0x3d, 0x3d, 0x7f, 0x71, 0x3f,
  0x30, 0x47, 0xa4, 0xbe, 0x93, 0xef, 0xbc, 0x3c, 0x58, 0x15, 0x66, 0xbe,
  0x5e, 0xd4, 0x6f, 0x3f, 0x65, 0x84, 0x67, 0xbe, 0xf4, 0xc1, 0x84, 0xbd,
  0xa4, 0xf9, 0x05, 0x3f, 0xbe, 0x59, 0x06, 0xbf, 0x3a, 0x7b, 0xa3, 0xbe,
  0x6a, 0x98, 0x05, 0x3f, 0x6b, 0xe4, 0xd3, 0x3e, 0xc5, 0x4f, 0xf0, 0x3e,
  0x66, 0xf9, 0xa9, 0x3e, 0x8c, 0x9c, 0x3d, 0x3f, 0x0d, 0xd7, 0xa7, 0x3e,
  0x30, 0x21, 0x53, 0xbf, 0x5d, 0xff, 0x30, 0x3f, 0xe1, 0x49, 0x3f, 0x3e,
  0xcf, 0x24, 0x8a, 0xbe, 0xda, 0x4e, 0x65, 0x3f, 0x28, 0x3a, 0xcc, 0xbf,
  0x3a, 0x29, 0x65, 0xbe, 0xde, 0xa7, 0x92, 0x3f, 0x70, 0xb5, 0xf8, 0x3d,
  0x00, 0x89, 0x1b, 0xbb, 0x69, 0x70, 0x12, 0x3f, 0x7c, 0xaa, 0x92, 0x3e,
  0x1c, 0xda, 0x89, 0x3f, 0xfc, 0xb0, 0x75, 0xbe, 0xe4, 0xbf, 0x45, 0xbf,
  0x16, 0x83, 0x82, 0x3e, 0xd4, 0xe4, 0x57, 0xbd, 0x4d, 0x19, 0x79, 0x3f,
  0x45, 0x03, 0x42, 0xbf, 0x6a, 0xe9, 0xa6, 0x3e, 0x70, 0x7b, 0x01, 0x3d,
  0xef, 0xf0, 0xe5, 0x3e, 0x69, 0x97, 0x70, 0x3f, 0xaf, 0xfa, 0x87, 0xbe,
  0x4d, 0xe5, 0xa0, 0xbf, 0xe4, 0x6a, 0x08, 0x3f, 0xdd, 0x14, 0xff, 0x3e,
  0x88, 0xb0, 0x0b, 0xbd, 0x74, 0xad, 0x12, 0xbf, 0x38, 0xbd, 0x77, 0x3d,
  0xe5, 0x96, 0x54, 0x3e, 0xfa, 0xb4, 0x21, 0x3f, 0x5b, 0x87, 0x15, 0x3e,
  0x85, 0xdf, 0xdb, 0xbe, 0x1b, 0x7b, 0x14, 0x3f, 0xf7, 0x21, 0xb0, 0x3f,
  0x38, 0x29, 0x1c, 0xbf, 0xf9, 0x85, 0xfa, 0x3e, 0x8e, 0xcf, 0xe6, 0x3f,
  0xd5, 0x18, 0x00, 0xbe, 0xe0, 0x18, 0x38, 0x3f, 0x84, 0x5b, 0xd7, 0x3d,
  0xb7, 0x56, 0x39, 0x3f, 0x49, 0x5e, 0xa6, 0x3e, 0xe5, 0x51, 0xcf, 0x3e,
  0xac, 0xd0, 0x82, 0xbe, 0x60, 0xd9, 0x8a, 0x3e, 0x69, 0xca, 0xd2, 0xbe,
  0x44, 0x71, 0x9c, 0xbd, 0x3e, 0x9b, 0xb0, 0x3e, 0x08, 0xa0, 0x9f, 0x3e,
  0xeb, 0x15, 0x21, 0x3f, 0xb0, 0x35, 0x0e, 0xbf, 0x93, 0x2c, 0x9c, 0xbf,
  0x0d, 0x2e, 0x31, 0xbe, 0x95, 0x70, 0x10, 0x3f, 0xed, 0x5a, 0x1b, 0x3f,
  0x89, 0xe9, 0x3e, 0xbe, 0x74, 0xa7, 0xa2, 0x3e, 0x3c, 0x89, 0x24, 0x3e,
  0xf4, 0xfd, 0xb6, 0xbe, 0x1e, 0x4d, 0xd2, 0xbb, 0xd8, 0xcf, 0x1b, 0xbd,
  0x5f, 0xa6, 0xbf, 0xbe, 0xb2, 0x7f, 0x8c, 0x3b, 0x0f, 0x85, 0xac, 0x3e,
  0xfc, 0x0d, 0xd0, 0x3c, 0x70, 0xdf, 0x69, 0x3e, 0x5e, 0xe3, 0x85, 0xbe,
  0x0d, 0xa7, 0x41, 0xbe, 0x14, 0xae, 0x90, 0xbe, 0xc4, 0x58, 0xb4, 0x3e,
  0x17, 0x1a, 0x5d, 0x3e, 0x38, 0x4b, 0x25, 0x3e, 0xa6, 0xd7, 0x27, 0xbe,
  0x99, 0x66, 0x9c, 0xbe, 0xff, 0x94, 0x7f, 0xbe, 0x6b, 0x7b, 0x66, 0xbd,
  0x40, 0xeb, 0x74, 0x3e, 0xb8, 0x74, 0x31, 0x3e, 0x5e, 0xf8, 0xb7, 0x3e,
  0xcc, 0xa2, 0xbc, 0xbe, 0x83, 0xda, 0xa3, 0xbe, 0x92, 0xd4, 0x3e, 0x3d,
  0x99, 0xbc, 0x63, 0x3e, 0x49, 0x44, 0xf9, 0xbd, 0x54, 0xb3, 0xa2, 0xbe,
  0xa0, 0xa4, 0xa7, 0xbd, 0x9a, 0x17, 0x83, 0xbe, 0x53, 0x64, 0x5a, 0xbe,
  0x5e, 0x8d, 0x85, 0x3e, 0x00, 0x96, 0x79, 0x3e, 0xec, 0x96, 0x9d, 0xbd,
  0x20, 0x28, 0xe4, 0x3d, 0xa8, 0xdb, 0xa8, 0xbe, 0x5d, 0x5b, 0x48, 0xbe,
  0xd0, 0x76, 0xbe, 0xbc, 0xa0, 0x4b, 0x41, 0x3d, 0x40, 0x23, 0xa9, 0x3d,
  0x30, 0xcb, 0xa7, 0xbe, 0x10, 0x2a, 0x49, 0xbd, 0x64, 0x34, 0xcd, 0xbd,
  0x9c, 0x6b, 0xb3, 0xbd, 0x14, 0x1d, 0xc1, 0x3d, 0x38, 0xe9, 0x97, 0x3d,
  0xf3, 0x1e, 0x5c, 0xbe, 0xc8, 0x8c, 0x7e, 0x3e, 0x60, 0x16, 0x52, 0x3c,
  0xae, 0x53, 0xb5, 0xbe, 0xb4, 0x02, 0xfa, 0x3d, 0x16, 0x92, 0x8d, 0x3e,
  0xd3, 0xd5, 0x21, 0xbe, 0xbc, 0x90, 0xb7, 0x3e, 0x92, 0x37, 0x86, 0xbe,
  0x2d, 0x79, 0x92, 0xbe, 0x94, 0x82, 0xba, 0xbd, 0x18, 0xfb, 0xe1, 0x3d,
  0x2c, 0xf2, 0x59, 0x3e, 0xe9, 0x86, 0x4f, 0x3e, 0x9d, 0xac, 0x27, 0x3c,
  0xce, 0x36, 0x69, 0x3f, 0xbb, 0xd1, 0x93, 0xbe, 0xa3, 0x07, 0xd3, 0x3e,
  0xf7, 0xd0, 0x8f, 0xbe, 0x27, 0x2e, 0x17, 0xbf, 0x7a, 0xcb, 0x96, 0x3e,
  0x3b, 0x9f, 0xd8, 0x3e, 0x1d, 0x15, 0x49, 0xbf, 0x08, 0x51, 0x80, 0xbf,
  0xb8, 0xa2, 0x0b, 0x3e, 0x28, 0x77, 0x93, 0xbe, 0xf4, 0x11, 0x04, 0x3e,
  0x71, 0x64, 0x72, 0xbf, 0x04, 0xec, 0x0a, 0x3e, 0x49, 0x96, 0x30, 0x3f,
  0x28, 0x2a, 0x11, 0xbd, 0x3a, 0x28, 0x84, 0xbe, 0xbf, 0x26, 0xdd, 0xbe,
  0xb1, 0x4b, 0x29, 0x3f, 0xbc, 0xd1, 0xb5, 0x3e, 0xf4, 0x01, 0xe9, 0x3d,
  0x70, 0x99, 0x0c, 0x3d, 0xc3, 0x4b, 0x52, 0xbf, 0xea, 0xa6, 0xb9, 0x3e,
  0xd1, 0x70, 0x61, 0x3f, 0x6a, 0xed, 0xb6, 0xbe, 0x63, 0x09, 0x63, 0x3e,
  0x31, 0xb7, 0x91, 0xbe, 0x04, 0x2c, 0x8a, 0xbe, 0xd8, 0x0f, 0x4d, 0x3e,
  0xd0, 0x2a, 0x4b, 0x3d, 0xdf, 0x53, 0xa6, 0xbe, 0x0c, 0xd1, 0x22, 0x3e,
  0x70, 0xa8, 0x82, 0x3e, 0xb8, 0x67, 0x19, 0xbd, 0x40, 0x74, 0xa4, 0x3e,
  0xc0, 0xac, 0xea, 0xbc, 0xaf, 0x32, 0x9e, 0xbe, 0x7e, 0x14, 0xa1, 0x3e,
  0xa4, 0x0b, 0x89, 0x3e, 0x10, 0xfe, 0xa6, 0xbe, 0x50, 0x35, 0xc8, 0xbc,
  0xe0, 0x6f, 0x22, 0x3c, 0xac, 0x39, 0x95, 0x3e, 0x83, 0x7d, 0x12, 0xbe,
  0xbc, 0x20, 0x0b, 0x3e, 0xb8, 0xb4, 0x0b, 0xbd, 0x68, 0x70, 0x24, 0x3d,
  0xb3, 0x71, 0x98, 0xbe, 0xc0, 0xba, 0x50, 0x3c, 0x80, 0xc8, 0x18, 0x3c,
  0x00, 0x89, 0x11, 0xbd, 0x20, 0x41, 0x94, 0x3c, 0xdf, 0x62, 0xa4, 0xbe,
  0x19, 0xf8, 0xb5, 0xbe, 0xc3, 0xa4, 0x82, 0xbe, 0x30, 0x98, 0x5e, 0xbe,
  0x64, 0xaa, 0xb5, 0x3e, 0x92, 0x2d, 0xa5, 0xbe, 0x44, 0xb6, 0x60, 0x3e,
  0x32, 0x39, 0xcc, 0x3f, 0xd0, 0xf0, 0x80, 0x3e, 0x62, 0x32, 0x11, 0x3f,
  0x78, 0x72, 0x03, 0x3f, 0xa6, 0x6c, 0xa8, 0xbe, 0x0a, 0x9c, 0xc5, 0x3f,
  0xb0, 0x07, 0x65, 0x3f, 0x86, 0xf7, 0xab, 0xbe, 0x18, 0x18, 0x55, 0x3f,
  0x20, 0x7d, 0x1a, 0xbd, 0x57, 0x0e, 0x5d, 0xbd, 0x70, 0xc6, 0xb7, 0x3c,
  0x84, 0x86, 0xd5, 0xbe, 0x96, 0x71, 0xaf, 0x3e, 0xa6, 0xb9, 0x56, 0x3f,
  0x1c, 0x2c, 0xb6, 0xbd, 0x7c, 0xce, 0xb1, 0x3a, 0xfe, 0x5c, 0x32, 0xbf,
  0x86, 0xe1, 0xa1, 0x3f, 0x2a, 0x8b, 0x9e, 0xbe, 0xe1, 0x79, 0x90, 0xbe,
  0x42, 0x56, 0x02, 0x3e, 0x7d, 0x25, 0x91, 0xbf, 0xb5, 0x65, 0x55, 0xbe,
  0x05, 0x80, 0xa6, 0x3f, 0x3e, 0xbf, 0xef, 0x3d, 0xc0, 0x8b, 0xec, 0x3e,
  0xa3, 0x63, 0x5d, 0xbe, 0x94, 0x69, 0xaf, 0xbd, 0x1b, 0x44, 0xac, 0xbe,
  0x47, 0x05, 0xb5, 0xbe, 0x48, 0x57, 0x0d, 0x3d, 0xbc, 0x62, 0x7a, 0xbe,
  0x33, 0x79, 0x8c, 0x3e, 0x49, 0x98, 0x26, 0x3e, 0xb4, 0xb0, 0x90, 0xbd,
  0x5e, 0x66, 0xa5, 0x3e, 0xff, 0xfd, 0xa9, 0x3e, 0xb4, 0xab, 0x82, 0x3d,
  0xa4, 0xff, 0x9c, 0xbe, 0xfb, 0x1f, 0x8b, 0xbd, 0x04, 0xa2, 0x8e, 0x3d,
  0x60, 0x89, 0x9b, 0xbd, 0x94, 0x03, 0xde, 0x3d, 0x7a, 0x1c, 0xac, 0xbe,
  0x78, 0x91, 0x73, 0xbd, 0xdd, 0x06, 0xab, 0xbd, 0x88, 0x22, 0x9c, 0xbd,
  0x26, 0xd3, 0xa9, 0x3d, 0x90, 0xc7, 0x0e, 0x3e, 0x10, 0x4f, 0xa1, 0x3e,
  0x4e, 0xbd, 0x9d, 0xbe, 0x6a, 0xf7, 0xa0, 0xbe, 0x30, 0x4a, 0x6f, 0x3d,
  0x73, 0xa9, 0x3f, 0xbe, 0x56, 0x2b, 0xbe, 0xbd, 0xe8, 0x15, 0x8b, 0x3e,
  0x05, 0x7b, 0x9b, 0xbe, 0xb1, 0xf0, 0xc3, 0x3e, 0x2f, 0x88, 0x43, 0xba,
  0xfd, 0xdd, 0x93, 0x3e, 0x77, 0x02, 0x2a, 0x3d, 0xaf, 0x96, 0x4d, 0xbd,
  0xab, 0xba, 0x88, 0x3f, 0x9a, 0x6f, 0x87, 0xbe, 0xbb, 0x06, 0xce, 0x3e,
  0x3c, 0xa6, 0x69, 0x3f, 0x56, 0xe4, 0x51, 0xbf, 0xd3, 0x10, 0x81, 0x3f,
  0xac, 0x54, 0xf9, 0x3d, 0xb8, 0xe3, 0x85, 0x3e, 0x68, 0x58, 0x6c, 0x3e,
  0x2a, 0xc7, 0xe4, 0xbe, 0x45, 0x9a, 0x18, 0xbe, 0x2d, 0xfb, 0xdc, 0xbd,
  0x80, 0xa4, 0xe7, 0xbd, 0x24, 0x72, 0x60, 0xbe, 0x40, 0xac, 0xdc, 0x3e,
  0xfb, 0xa2, 0xed, 0x3c, 0xc4, 0x93, 0x3e, 0x3e, 0x1a, 0x23, 0x94, 0x3e,
  0xa4, 0x45, 0x71, 0xbd, 0xf8, 0x73, 0xd4, 0x3e, 0x01, 0xad, 0x0d, 0x3f,
  0x0f, 0x18, 0x06, 0x3f, 0x29, 0xd4, 0xbb, 0x3e, 0x76, 0xe5, 0x47, 0xbf,
  0x80, 0xb9, 0x6c, 0x3b, 0x55, 0xe6, 0x91, 0x3d, 0x40, 0x0c, 0x92, 0x3d,
  0x8f, 0xa8, 0x89, 0x3f, 0xc4, 0x42, 0x72, 0xbf, 0x93, 0x2b, 0x06, 0x3f,
  0x69, 0x78, 0x13, 0xbe, 0xe1, 0xa7, 0x72, 0xbe, 0xe1, 0x40, 0xe2, 0x3e,
  0x64, 0x1c, 0xb9, 0x3e, 0xf4, 0x28, 0x30, 0xbf, 0xee, 0xa9, 0x1a, 0xbf,
  0x54, 0xd5, 0x90, 0x3e, 0x7f, 0x91, 0x79, 0xbd, 0xa9, 0x5f, 0x80, 0xbe,
  0xbe, 0xf4, 0x99, 0xbf, 0x1c, 0x1e, 0x21, 0xbe, 0x2e, 0xa6, 0x52, 0x3f,
  0x72, 0x01, 0xae, 0x3e, 0x9f, 0x57, 0x9f, 0x3e, 0x2e, 0xcc, 0xb0, 0xbe,
  0x08, 0x11, 0x3d, 0x3f, 0xe3, 0xb9, 0x40, 0xbe, 0xa9, 0xae, 0x99, 0xbe,
  0x4a, 0x9e, 0x81, 0x3e, 0x89, 0xeb, 0x03, 0xbf, 0x9f, 0x18, 0xc8, 0x3e,
  0x61, 0x64, 0x39, 0x3f, 0x1f, 0x0a, 0x33, 0xbf, 0xfc, 0x31, 0xd0, 0x3e,
  0xe0, 0xcc, 0x9d, 0x3e, 0x6e, 0xfe, 0xff, 0xff, 0x04, 0x00, 0x00, 0x00,
  0xf0, 0x00, 0x00, 0x00, 0x45, 0x4b, 0x14, 0xc0, 0xf6, 0x99, 0x04, 0xbf,
  0x2d, 0xa8, 0x3f, 0x3e, 0xd5, 0xad, 0x0d, 0x3e, 0xb3, 0xb2, 0xfe, 0xbe,
  0xf7, 0xb1, 0xaf, 0xbf, 0x89, 0xfc, 0x0b, 0xc0, 0x30, 0x25, 0xad, 0xbe,
  0x70, 0x24, 0xc5, 0xbe, 0x3f, 0x22, 0x03, 0x40, 0x14, 0x3f, 0x7d, 0x3e,
  0x93, 0x71, 0x7f, 0x3f, 0x99, 0xbc, 0x0d, 0x3e, 0x93, 0x93, 0x96, 0xbd,
  0x66, 0x31, 0xd5, 0x3f, 0x1e, 0x3f, 0xc7, 0x3f, 0x00, 0xb9, 0xa5, 0x3b,
  0x21, 0x13, 0xcf, 0xbf, 0x62, 0xbe, 0x4f, 0xbe, 0xea, 0xbe, 0x8d, 0x3e,
  0xfd, 0xfb, 0xab, 0xbf, 0x36, 0x55, 0x8c, 0x3f, 0xa2, 0x39, 0x5a, 0xbe,
  0x76, 0x53, 0x86, 0x3e, 0x24, 0xeb, 0xfb, 0xbf, 0x70, 0xc6, 0x4d, 0xbd,
  0x82, 0x67, 0xb4, 0x3f, 0x43, 0xc3, 0xe7, 0xbd, 0x99, 0x72, 0x78, 0xbf,
  0xae, 0xd9, 0x18, 0xc0, 0xf1, 0x4c, 0x22, 0xbf, 0x2a, 0xa3, 0x47, 0xbe,
  0xea, 0x0c, 0x47, 0xc0, 0x18, 0x57, 0x9a, 0xbc, 0x30, 0x00, 0xdc, 0x3e,
  0x4c, 0x77, 0x6b, 0x3f, 0x07, 0xf7, 0xab, 0x3d, 0x2c, 0x43, 0xd3, 0xbe,
  0x82, 0xc8, 0x94, 0x3e, 0xaf, 0x0a, 0x63, 0xbf, 0x84, 0x14, 0xb8, 0x3e,
  0xab, 0xf8, 0x76, 0xc0, 0xbe, 0x8a, 0x6a, 0xbe, 0x7a, 0x2b, 0x42, 0xc0,
  0xf8, 0x46, 0x96, 0xbf, 0xf5, 0xea, 0x7c, 0xbf, 0xab, 0x52, 0x08, 0x3f,
  0xc4, 0x0e, 0x0f, 0x3f, 0x13, 0x13, 0x0d, 0xbf, 0x23, 0x53, 0x81, 0xbf,
  0x84, 0xd8, 0x1b, 0x3e, 0xe7, 0x0c, 0x44, 0xbf, 0xa9, 0xf9, 0x70, 0xbe,
  0x70, 0x25, 0x39, 0x3e, 0x6d, 0xba, 0xd6, 0xbf, 0x60, 0x0c, 0xcf, 0x3d,
  0x4a, 0xf9, 0x49, 0xbf, 0x49, 0xd2, 0xb0, 0x3d, 0x49, 0xb4, 0x1a, 0x3f,
  0x63, 0xd0, 0xbe, 0xbf, 0xbc, 0xfa, 0xff, 0xff, 0xc0, 0xfa, 0xff, 0xff,
  0x0f, 0x00, 0x00, 0x00, 0x4d, 0x4c, 0x49, 0x52, 0x20, 0x43, 0x6f, 0x6e,
  0x76, 0x65, 0x72, 0x74, 0x65, 0x64, 0x2e, 0x00, 0x01, 0x00, 0x00, 0x00,
  0x14, 0x00, 0x00, 0x00, 0x00, 0x00, 0x0e, 0x00, 0x18, 0x00, 0x14, 0x00,
  0x10, 0x00, 0x0c, 0x00, 0x08, 0x00, 0x04, 0x00, 0x0e, 0x00, 0x00, 0x00,
  0x14, 0x00, 0x00, 0x00, 0x1c, 0x00, 0x00, 0x00, 0x34, 0x01, 0x00, 0x00,
  0x38, 0x01, 0x00, 0x00, 0x3c, 0x01, 0x00, 0x00, 0x04, 0x00, 0x00, 0x00,
  0x6d, 0x61, 0x69, 0x6e, 0x00, 0x00, 0x00, 0x00, 0x04, 0x00, 0x00, 0x00,
  0xdc, 0x00, 0x00, 0x00, 0x94, 0x00, 0x00, 0x00, 0x50, 0x00, 0x00, 0x00,
  0x14, 0x00, 0x00, 0x00, 0x00, 0x00, 0x0e, 0x00, 0x1a, 0x00, 0x14, 0x00,
  0x10, 0x00, 0x0c, 0x00, 0x0b, 0x00, 0x04, 0x00, 0x0e, 0x00, 0x00, 0x00,
  0x1c, 0x00, 0x00, 0x00, 0x00, 0x00, 0x00, 0x09, 0x1c, 0x00, 0x00, 0x00,
  0x20, 0x00, 0x00, 0x00, 0x01, 0x00, 0x00, 0x00, 0x00, 0x00, 0x06, 0x00,
  0x08, 0x00, 0x04, 0x00, 0x06, 0x00, 0x00, 0x00, 0x00, 0x00, 0x80, 0x3f,
  0x01, 0x00, 0x00, 0x00, 0x0a, 0x00, 0x00, 0x00, 0x01, 0x00, 0x00, 0x00,
  0x09, 0x00, 0x00, 0x00, 0xce, 0xff, 0xff, 0xff, 0x10, 0x00, 0x00, 0x00,
  0x00, 0x00, 0x00, 0x08, 0x0c, 0x00, 0x00, 0x00, 0x10, 0x00, 0x00, 0x00,
  0x84, 0xfb, 0xff, 0xff, 0x01, 0x00, 0x00, 0x00, 0x09, 0x00, 0x00, 0x00,
  0x03, 0x00, 0x00, 0x00, 0x08, 0x00, 0x00, 0x00, 0x01, 0x00, 0x00, 0x00,
  0x03, 0x00, 0x00, 0x00, 0x00, 0x00, 0x0e, 0x00, 0x14, 0x00, 0x00, 0x00,
  0x10, 0x00, 0x0c, 0x00, 0x0b, 0x00, 0x04, 0x00, 0x0e, 0x00, 0x00, 0x00,
  0x10, 0x00, 0x00, 0x00, 0x00, 0x00, 0x00, 0x08, 0x10, 0x00, 0x00, 0x00,
  0x14, 0x00, 0x00, 0x00, 0xba, 0xff, 0xff, 0xff, 0x00, 0x00, 0x00, 0x01,
  0x01, 0x00, 0x00, 0x00, 0x08, 0x00, 0x00, 0x00, 0x03, 0x00, 0x00, 0x00,
  0x07, 0x00, 0x00, 0x00, 0x02, 0x00, 0x00, 0x00, 0x04, 0x00, 0x00, 0x00,
  0x00, 0x00, 0x0e, 0x00, 0x16, 0x00, 0x00, 0x00, 0x10, 0x00, 0x0c, 0x00,
  0x0b, 0x00, 0x04, 0x00, 0x0e, 0x00, 0x00, 0x00, 0x18, 0x00, 0x00, 0x00,
  0x00, 0x00, 0x00, 0x08, 0x18, 0x00, 0x00, 0x00, 0x1c, 0x00, 0x00, 0x00,
  0x00, 0x00, 0x06, 0x00, 0x08, 0x00, 0x07, 0x00, 0x06, 0x00, 0x00, 0x00,
  0x00, 0x00, 0x00, 0x01, 0x01, 0x00, 0x00, 0x00, 0x07, 0x00, 0x00, 0x00,
  0x03, 0x00, 0x00, 0x00, 0x00, 0x00, 0x00, 0x00, 0x06, 0x00, 0x00, 0x00,
  0x05, 0x00, 0x00, 0x00, 0x01, 0x00, 0x00, 0x00, 0x0a, 0x00, 0x00, 0x00,
  0x01, 0x00, 0x00, 0x00, 0x00, 0x00, 0x00, 0x00, 0x0b, 0x00, 0x00, 0x00,
  0xa4, 0x03, 0x00, 0x00, 0x4c, 0x03, 0x00, 0x00, 0x0c, 0x03, 0x00, 0x00,
  0xd0, 0x02, 0x00, 0x00, 0x74, 0x02, 0x00, 0x00, 0x1c, 0x02, 0x00, 0x00,
  0xd0, 0x01, 0x00, 0x00, 0x4c, 0x01, 0x00, 0x00, 0xc0, 0x00, 0x00, 0x00,
  0x50, 0x00, 0x00, 0x00, 0x04, 0x00, 0x00, 0x00, 0x9e, 0xfc, 0xff, 0xff,
  0x00, 0x00, 0x00, 0x01, 0x10, 0x00, 0x00, 0x00, 0x10, 0x00, 0x00, 0x00,
  0x0b, 0x00, 0x00, 0x00, 0x28, 0x00, 0x00, 0x00, 0x88, 0xfc, 0xff, 0xff,
  0x1b, 0x00, 0x00, 0x00, 0x53, 0x74, 0x61, 0x74, 0x65, 0x66, 0x75, 0x6c,
  0x50, 0x61, 0x72, 0x74, 0x69, 0x74, 0x69, 0x6f, 0x6e, 0x65, 0x64, 0x43,
  0x61, 0x6c, 0x6c, 0x5f, 0x31, 0x3a, 0x30, 0x00, 0x02, 0x00, 0x00, 0x00,
  0x01, 0x00, 0x00, 0x00, 0x04, 0x00, 0x00, 0x00, 0xe6, 0xfc, 0xff, 0xff,
  0x00, 0x00, 0x00, 0x01, 0x10, 0x00, 0x00, 0x00, 0x10, 0x00, 0x00, 0x00,
  0x0a, 0x00, 0x00, 0x00, 0x4c, 0x00, 0x00, 0x00, 0xd0, 0xfc, 0xff, 0xff,
  0x3c, 0x00, 0x00, 0x00, 0x73, 0x65, 0x71, 0x75, 0x65, 0x6e, 0x74, 0x69,
  0x61, 0x6c, 0x5f, 0x31, 0x2f, 0x64, 0x65, 0x6e, 0x73, 0x65, 0x5f, 0x32,
  0x5f, 0x31, 0x2f, 0x4d, 0x61, 0x74, 0x4d, 0x75, 0x6c, 0x3b, 0x73, 0x65,
  0x71, 0x75, 0x65, 0x6e, 0x74, 0x69, 0x61, 0x6c, 0x5f, 0x31, 0x2f, 0x64,
  0x65, 0x6e, 0x73, 0x65, 0x5f, 0x32, 0x5f, 0x31, 0x2f, 0x42, 0x69, 0x61,
  0x73, 0x41, 0x64, 0x64, 0x00, 0x00, 0x00, 0x00, 0x02, 0x00, 0x00, 0x00,
  0x01, 0x00, 0x00, 0x00, 0x04, 0x00, 0x00, 0x00, 0x52, 0xfd, 0xff, 0xff,
  0x00, 0x00, 0x00, 0x01, 0x10, 0x00, 0x00, 0x00, 0x10, 0x00, 0x00, 0x00,
  0x09, 0x00, 0x00, 0x00, 0x68, 0x00, 0x00, 0x00, 0x3c, 0xfd, 0xff, 0xff,
  0x58, 0x00, 0x00, 0x00, 0x73, 0x65, 0x71, 0x75, 0x65, 0x6e, 0x74, 0x69,
  0x61, 0x6c, 0x5f, 0x31, 0x2f, 0x64, 0x65, 0x6e, 0x73, 0x65, 0x5f, 0x31,
  0x5f, 0x32, 0x2f, 0x4d, 0x61, 0x74, 0x4d, 0x75, 0x6c, 0x3b, 0x73, 0x65,
  0x71, 0x75, 0x65, 0x6e, 0x74, 0x69, 0x61, 0x6c, 0x5f, 0x31, 0x2f, 0x64,
  0x65, 0x6e, 0x73, 0x65, 0x5f, 0x31, 0x5f, 0x32, 0x2f, 0x52, 0x65, 0x6c,
  0x75, 0x3b, 0x73, 0x65, 0x71, 0x75, 0x65, 0x6e, 0x74, 0x69, 0x61, 0x6c,
  0x5f, 0x31, 0x2f, 0x64, 0x65, 0x6e, 0x73, 0x65, 0x5f, 0x31, 0x5f, 0x32,
  0x2f, 0x42, 0x69, 0x61, 0x73, 0x41, 0x64, 0x64, 0x00, 0x00, 0x00, 0x00,
  0x02, 0x00, 0x00, 0x00, 0x01, 0x00, 0x00, 0x00, 0x0f, 0x00, 0x00, 0x00,
  0xda, 0xfd, 0xff, 0xff, 0x00, 0x00, 0x00, 0x01, 0x10, 0x00, 0x00, 0x00,
  0x10, 0x00, 0x00, 0x00, 0x08, 0x00, 0x00, 0x00, 0x60, 0x00, 0x00, 0x00,
  0xc4, 0xfd, 0xff, 0xff, 0x52, 0x00, 0x00, 0x00, 0x73, 0x65, 0x71, 0x75,
  0x65, 0x6e, 0x74, 0x69, 0x61, 0x6c, 0x5f, 0x31, 0x2f, 0x64, 0x65, 0x6e,
  0x73, 0x65, 0x5f, 0x31, 0x2f, 0x4d, 0x61, 0x74, 0x4d, 0x75, 0x6c, 0x3b,
  0x73, 0x65, 0x71, 0x75, 0x65, 0x6e, 0x74, 0x69, 0x61, 0x6c, 0x5f, 0x31,
  0x2f, 0x64, 0x65, 0x6e, 0x73, 0x65, 0x5f, 0x31, 0x2f, 0x52, 0x65, 0x6c,
  0x75, 0x3b, 0x73, 0x65, 0x71, 0x75, 0x65, 0x6e, 0x74, 0x69, 0x61, 0x6c,
  0x5f, 0x31, 0x2f, 0x64, 0x65, 0x6e, 0x73, 0x65, 0x5f, 0x31, 0x2f, 0x42,
  0x69, 0x61, 0x73, 0x41, 0x64, 0x64, 0x00, 0x00, 0x02, 0x00, 0x00, 0x00,
  0x01, 0x00, 0x00, 0x00, 0x1e, 0x00, 0x00, 0x00, 0x5a, 0xfe, 0xff, 0xff,
  0x00, 0x00, 0x00, 0x01, 0x10, 0x00, 0x00, 0x00, 0x10, 0x00, 0x00, 0x00,
  0x07, 0x00, 0x00, 0x00, 0x28, 0x00, 0x00, 0x00, 0x44, 0xfe, 0xff, 0xff,
  0x1b, 0x00, 0x00, 0x00, 0x73, 0x65, 0x71, 0x75, 0x65, 0x6e, 0x74, 0x69,
  0x61, 0x6c, 0x5f, 0x31, 0x2f, 0x64, 0x65, 0x6e, 0x73, 0x65, 0x5f, 0x31,
  0x2f, 0x4d, 0x61, 0x74, 0x4d, 0x75, 0x6c, 0x00, 0x02, 0x00, 0x00, 0x00,
  0x1e, 0x00, 0x00, 0x00, 0x12, 0x00, 0x00, 0x00, 0xa2, 0xfe, 0xff, 0xff,
  0x00, 0x00, 0x00, 0x01, 0x10, 0x00, 0x00, 0x00, 0x10, 0x00, 0x00, 0x00,
  0x06, 0x00, 0x00, 0x00, 0x38, 0x00, 0x00, 0x00, 0x8c, 0xfe, 0xff, 0xff,
  0x2b, 0x00, 0x00, 0x00, 0x73, 0x65, 0x71, 0x75, 0x65, 0x6e, 0x74, 0x69,
  0x61, 0x6c, 0x5f, 0x31, 0x2f, 0x64, 0x65, 0x6e, 0x73, 0x65, 0x5f, 0x31,
  0x2f, 0x42, 0x69, 0x61, 0x73, 0x41, 0x64, 0x64, 0x2f, 0x52, 0x65, 0x61,
  0x64, 0x56, 0x61, 0x72, 0x69, 0x61, 0x62, 0x6c, 0x65, 0x4f, 0x70, 0x00,
  0x01, 0x00, 0x00, 0x00, 0x1e, 0x00, 0x00, 0x00, 0xf6, 0xfe, 0xff, 0xff,
  0x00, 0x00, 0x00, 0x01, 0x10, 0x00, 0x00, 0x00, 0x10, 0x00, 0x00, 0x00,
  0x05, 0x00, 0x00, 0x00, 0x3c, 0x00, 0x00, 0x00, 0xe0, 0xfe, 0xff, 0xff,
  0x2d, 0x00, 0x00, 0x00, 0x73, 0x65, 0x71, 0x75, 0x65, 0x6e, 0x74, 0x69,
  0x61, 0x6c, 0x5f, 0x31, 0x2f, 0x64, 0x65, 0x6e, 0x73, 0x65, 0x5f, 0x31,
  0x5f, 0x32, 0x2f, 0x42, 0x69, 0x61, 0x73, 0x41, 0x64, 0x64, 0x2f, 0x52,
  0x65, 0x61, 0x64, 0x56, 0x61, 0x72, 0x69, 0x61, 0x62, 0x6c, 0x65, 0x4f,
  0x70, 0x00, 0x00, 0x00, 0x01, 0x00, 0x00, 0x00, 0x0f, 0x00, 0x00, 0x00,
  0x4e, 0xff, 0xff, 0xff, 0x00, 0x00, 0x00, 0x01, 0x10, 0x00, 0x00, 0x00,
  0x10, 0x00, 0x00, 0x00, 0x04, 0x00, 0x00, 0x00, 0x1c, 0x00, 0x00, 0x00,
  0x38, 0xff, 0xff, 0xff, 0x0f, 0x00, 0x00, 0x00, 0x61, 0x72, 0x69, 0x74,
  0x68, 0x2e, 0x63, 0x6f, 0x6e, 0x73, 0x74, 0x61, 0x6e, 0x74, 0x32, 0x00,
  0x01, 0x00, 0x00, 0x00, 0x04, 0x00, 0x00, 0x00, 0x86, 0xff, 0xff, 0xff,
  0x00, 0x00, 0x00, 0x01, 0x10, 0x00, 0x00, 0x00, 0x10, 0x00, 0x00, 0x00,
  0x03, 0x00, 0x00, 0x00, 0x1c, 0x00, 0x00, 0x00, 0x70, 0xff, 0xff, 0xff,
  0x0f, 0x00, 0x00, 0x00, 0x61, 0x72, 0x69, 0x74, 0x68, 0x2e, 0x63, 0x6f,
  0x6e, 0x73, 0x74, 0x61, 0x6e, 0x74, 0x31, 0x00, 0x02, 0x00, 0x00, 0x00,
  0x0f, 0x00, 0x00, 0x00, 0x1e, 0x00, 0x00, 0x00, 0xc2, 0xff, 0xff, 0xff,
  0x00, 0x00, 0x00, 0x01, 0x10, 0x00, 0x00, 0x00, 0x10, 0x00, 0x00, 0x00,
  0x02, 0x00, 0x00, 0x00, 0x1c, 0x00, 0x00, 0x00, 0xac, 0xff, 0xff, 0xff,
  0x0e, 0x00, 0x00, 0x00, 0x61, 0x72, 0x69, 0x74, 0x68, 0x2e, 0x63, 0x6f,
  0x6e, 0x73, 0x74, 0x61, 0x6e, 0x74, 0x00, 0x00, 0x02, 0x00, 0x00, 0x00,
  0x04, 0x00, 0x00, 0x00, 0x0f, 0x00, 0x00, 0x00, 0x00, 0x00, 0x16, 0x00,
  0x18, 0x00, 0x14, 0x00, 0x00, 0x00, 0x10, 0x00, 0x0c, 0x00, 0x08, 0x00,
  0x00, 0x00, 0x00, 0x00, 0x00, 0x00, 0x07, 0x00, 0x16, 0x00, 0x00, 0x00,
  0x00, 0x00, 0x00, 0x01, 0x14, 0x00, 0x00, 0x00, 0x14, 0x00, 0x00, 0x00,
  0x01, 0x00, 0x00, 0x00, 0x30, 0x00, 0x00, 0x00, 0x04, 0x00, 0x04, 0x00,
  0x04, 0x00, 0x00, 0x00, 0x1e, 0x00, 0x00, 0x00, 0x73, 0x65, 0x72, 0x76,
  0x69, 0x6e, 0x67, 0x5f, 0x64, 0x65, 0x66, 0x61, 0x75, 0x6c, 0x74, 0x5f,
  0x6b, 0x65, 0x72, 0x61, 0x73, 0x5f, 0x74, 0x65, 0x6e, 0x73, 0x6f, 0x72,
  0x3a, 0x30, 0x00, 0x00, 0x02, 0x00, 0x00, 0x00, 0x01, 0x00, 0x00, 0x00,
  0x12, 0x00, 0x00, 0x00, 0x02, 0x00, 0x00, 0x00, 0x20, 0x00, 0x00, 0x00,
  0x04, 0x00, 0x00, 0x00, 0xf4, 0xff, 0xff, 0xff, 0x19, 0x00, 0x00, 0x00,
  0x00, 0x00, 0x00, 0x19, 0x0c, 0x00, 0x0c, 0x00, 0x0b, 0x00, 0x00, 0x00,
  0x00, 0x00, 0x04, 0x00, 0x0c, 0x00, 0x00, 0x00, 0x09, 0x00, 0x00, 0x00,
  0x00, 0x00, 0x00, 0x09
};
